{
  "version": "1.0",
  "truncation": null,
  "padding": null,
  "added_tokens": [
    {
      "id": 0,
      "content": "<bos>",
      "single_word": false,
      "lstrip": false,
      "rstrip": false,
      "normalized": false,
      "special": true
    },
    {
      "id": 1,
      "content": "<eos>",
      "single_word": false,
      "lstrip": false,
      "rstrip": false,
      "normalized": false,
      "special": true
    },
    {
      "id": 2,
      "content": "<pad>",
      "single_word": false,
      "lstrip": false,
      "rstrip": false,
      "normalized": false,
      "special": true
    },
    {
      "id": 3,
      "content": "<unk>",
      "single_word": false,
      "lstrip": false,
      "rstrip": false,
      "normalized": false,
      "special": true
    }
  ],
  "normalizer": null,
  "pre_tokenizer": {
    "type": "ByteLevel",
    "add_prefix_space": false,
    "trim_offsets": true,
    "use_regex": true
  },
  "post_processor": {
    "type": "TemplateProcessing",
    "single": [
      {
        "SpecialToken": {
          "id": "<bos>",
          "type_id": 0
        }
      },
      {
        "Sequence": {
          "id": "A",
          "type_id": 0
        }
      },
      {
        "SpecialToken": {
          "id": "<eos>",
          "type_id": 0
        }
      }
    ],
    "pair": [
      {
        "Sequence": {
          "id": "A",
          "type_id": 0
        }
      },
      {
        "Sequence": {
          "id": "B",
          "type_id": 1
        }
      }
    ],
    "special_tokens": {
      "<bos>": {
        "id": "<bos>",
        "ids": [
          0
        ],
        "tokens": [
          "<bos>"
        ]
      },
      "<eos>": {
        "id": "<eos>",
        "ids": [
          1
        ],
        "tokens": [
          "<eos>"
        ]
      }
    }
  },
  "decoder": {
    "type": "ByteLevel",
    "add_prefix_space": true,
    "trim_offsets": true,
    "use_regex": true
  },
  "model": {
    "type": "BPE",
    "dropout": null,
    "unk_token": "<unk>",
    "continuing_subword_prefix": null,
    "end_of_word_suffix": null,
    "fuse_unk": false,
    "byte_fallback": false,
    "ignore_merges": false,
    "vocab": {
      "<bos>": 0,
      "<eos>": 1,
      "<pad>": 2,
      "<unk>": 3,
      ":": 4,
      "C": 5,
      "M": 6,
      "N": 7,
      "P": 8,
      "R": 9,
      "S": 10,
      "T": 11,
      "U": 12,
      "a": 13,
      "c": 14,
      "e": 15,
      "f": 16,
      "h": 17,
      "m": 18,
      "n": 19,
      "o": 20,
      "r": 21,
      "s": 22,
      "y": 23,
      "¡": 24,
      "¢": 25,
      "£": 26,
      "¤": 27,
      "¥": 28,
      "¦": 29,
      "§": 30,
      "¨": 31,
      "©": 32,
      "ª": 33,
      "«": 34,
      "¬": 35,
      "®": 36,
      "¯": 37,
      "°": 38,
      "±": 39,
      "³": 40,
      "´": 41,
      "µ": 42,
      "¶": 43,
      "·": 44,
      "¸": 45,
      "¹": 46,
      "º": 47,
      "»": 48,
      "¼": 49,
      "½": 50,
      "¾": 51,
      "¿": 52,
      "ã": 53,
      "ä": 54,
      "å": 55,
      "æ": 56,
      "ç": 57,
      "è": 58,
      "é": 59,
      "ï": 60,
      "Ċ": 61,
      "Ģ": 62,
      "ģ": 63,
      "Ĥ": 64,
      "ĥ": 65,
      "Ħ": 66,
      "ħ": 67,
      "Ĩ": 68,
      "ĩ": 69,
      "Ī": 70,
      "ī": 71,
      "Ĭ": 72,
      "ĭ": 73,
      "Į": 74,
      "į": 75,
      "İ": 76,
      "ı": 77,
      "Ĳ": 78,
      "ĳ": 79,
      "Ĵ": 80,
      "ĵ": 81,
      "Ķ": 82,
      "ķ": 83,
      "ĸ": 84,
      "Ĺ": 85,
      "ĺ": 86,
      "Ļ": 87,
      "ļ": 88,
      "Ľ": 89,
      "ľ": 90,
      "Ŀ": 91,
      "ŀ": 92,
      "Ł": 93,
      "ł": 94,
      "Ń": 95,
      "ï¼": 96,
      "ä¸": 97,
      "ï¼Į": 98,
      "¨æ": 99,
      "åĬ": 100,
      "çĶ": 101,
      "ãĢ": 102,
      "åħ": 103,
      "ä½": 104,
      "åĪ": 105,
      "ãĢĤ": 106,
      "©æ": 107,
      "çĶ¨æ": 108,
      "åı": 109,
      "çļ": 110,
      "çļĦ": 111,
      "åº": 112,
      "éĩ": 113,
      "Ī·": 114,
      "īĭ": 115,
      "åĬ©æ": 116,
      "çĶ¨æĪ·": 117,
      "åĬ©æīĭ": 118,
      "ç»": 119,
      "è®": 120,
      "éĢ": 121,
      "ä»": 122,
      "å°": 123,
      "æ³": 124,
      "æĺ": 125,
      "è¯": 126,
      "įå": 127,
      "ä¹": 128,
      "ï¼Ł": 129,
      "ä¸İ": 130,
      "°´": 131,
      "å¤": 132,
      "åŃ": 133,
      "æķ": 134,
      "æĸ": 135,
      "æ°´": 136,
      "ï¼ļ": 137,
      "çĶ¨": 138,
      "åħ³": 139,
      "å°ı": 140,
      "æĺ¯": 141,
      "æĸ¹": 142,
      "or": 143,
      "å¼": 144,
      "åĨ": 145,
      "åĮ": 146,
      "åĲ": 147,
      "ç½": 148,
      "è¿": 149,
      "èĩ": 150,
      "Ħı": 151,
      "ä¸Ģ": 152,
      "¨æĦı": 153,
      "åĬĽ": 154,
      "åº¦": 155,
      "åºı": 156,
      "éĩı": 157,
      "ç»ĥ": 158,
      "æ³¨æĦı": 159,
      "æ³¨æĦıåĬĽ": 160,
      "¡å": 161,
      "¦ı": 162,
      "¨¡å": 163,
      "¸é": 164,
      "ºåĪ": 165,
      "æľ": 166,
      "æĿ": 167,
      "ç®": 168,
      "ç¼": 169,
      "èĴ": 170,
      "éķ": 171,
      "éĹ": 172,
      "Ģä¹": 173,
      "ŀĭ": 174,
      "Ńç»ĥ": 175,
      "åħĪ": 176,
      "åĪĹ": 177,
      "éĩį": 178,
      "è®Ńç»ĥ": 179,
      "éĢļ": 180,
      "ä»Ģä¹": 181,
      "å¤§": 182,
      "æķ°": 183,
      "orm": 184,
      "ç½®": 185,
      "èĩª": 186,
      "åºıåĪĹ": 187,
      "¨¡åŀĭ": 188,
      "¸é¦ı": 189,
      "èĴ¸é¦ı": 190,
      "éķ¿": 191,
      "ä»Ģä¹Ī": 192,
      "¤º": 193,
      "¥åŃ": 194,
      "¦Ĥ": 195,
      "³»": 196,
      "äº": 197,
      "ä¼": 198,
      "å¹": 199,
      "åĩ": 200,
      "å¦Ĥ": 201,
      "æħ": 202,
      "æĬ": 203,
      "æŀ": 204,
      "æ¨¡åŀĭ": 205,
      "ç§": 206,
      "ç¤º": 207,
      "ç³»": 208,
      "è¡": 209,
      "è§": 210,
      "Ĥè": 211,
      "ĥéĩį": 212,
      "įç½®": 213,
      "ãĢģ": 214,
      "ä½¿": 215,
      "ä½ķ": 216,
      "ä½įç½®": 217,
      "åı¥åŃ": 218,
      "ä¹ł": 219,
      "åŃ¦": 220,
      "åħ³ç³»": 221,
      "åĮĸ": 222,
      "è¿ĩ": 223,
      "èĩªæ³¨æĦıåĬĽ": 224,
      "éķ¿åº¦": 225,
      "å¦Ĥä½ķ": 226,
      "æħ¢": 227,
      "æĬĬ": 228,
      "åı¥åŃĲ": 229,
      "CP": 230,
      "MS": 231,
      "Norm": 232,
      "RMS": 233,
      "Tr": 234,
      "Uä¸": 235,
      "an": 236,
      "er": 237,
      "form": 238,
      "sform": 239,
      "¡ç®": 240,
      "¢¯": 241,
      "¢ŀ": 242,
      "¦ģ": 243,
      "¯æ°´": 244,
      "±äº": 245,
      "´¨": 246,
      "º¯æ°´": 247,
      "¾ĭ": 248,
      "ä¿": 249,
      "ä¾ĭ": 250,
      "å®": 251,
      "åį": 252,
      "åľ": 253,
      "å¢ŀ": 254,
      "æī": 255,
      "æĮ": 256,
      "æį": 257,
      "æĽ": 258,
      "æł": 259,
      "çİ": 260,
      "çľ": 261,
      "çł": 262,
      "çŃ": 263,
      "çº¯æ°´": 264,
      "èĥ": 265,
      "è¦ģ": 266,
      "éĶ": 267,
      "éĻ": 268,
      "ĤçļĦ": 269,
      "ĩæĸ¹": 270,
      "ĪéĢ": 271,
      "Įåħ": 272,
      "Ĳĳ": 273,
      "ĵæŀ": 274,
      "ĸçł": 275,
      "ĺæħ¢": 276,
      "łéĩı": 277,
      "ŃçļĦ": 278,
      "ä¸ª": 279,
      "ä¸ŃçļĦ": 280,
      "åĬł": 281,
      "åħ±äº": 282,
      "ä½İ": 283,
      "åĪ¶": 284,
      "åĪĨ": 285,
      "åıĺæħ¢": 286,
      "çļĦæ°´": 287,
      "ç»ĵæŀ": 288,
      "è®¡ç®": 289,
      "ä»İ": 290,
      "æ³ķ": 291,
      "è¯į": 292,
      "è¯įå": 293,
      "įåĨ": 294,
      "įåĲĳ": 295,
      "æĸ¹æ³ķ": 296,
      "å¼łéĩı": 297,
      "åĨĻ": 298,
      "åĨįåĨ": 299,
      "åĮºåĪ": 300,
      "åĲİ": 301,
      "åĲĪéĢ": 302,
      "ä¸Ģç§": 303,
      "æ³¨æĦıåĬĽæľ": 304,
      "ºåĪ¶": 305,
      "æĿĤè": 306,
      "æĿĥéĩį": 307,
      "ç®Ģ": 308,
      "ç¼ĸçł": 309,
      "åħĪçľ": 310,
      "éĢļè¿ĩ": 311,
      "åºıåĪĹéķ¿åº¦": 312,
      "èĴ¸é¦ıæ°´": 313,
      "ä»Ģä¹Īæĺ¯": 314,
      "ä¼ļ": 315,
      "å¹¶": 316,
      "åĩº": 317,
      "ç¤ºä¾ĭ": 318,
      "è¡¨": 319,
      "è§£": 320,
      "ä½¿çĶ¨": 321,
      "ä½įç½®ç¼ĸçł": 322,
      "ä¹łå": 323,
      "èĩªæ³¨æĦıåĬĽçļĦ": 324,
      "CPUä¸": 325,
      "RMSNorm": 326,
      "Tran": 327,
      "sformer": 328,
      "¢¯åº¦": 329,
      "æĽ´": 330,
      "çİĩ": 331,
      "èĥ½": 332,
      "åħ±äº«": 333,
      "ç»ĵæŀĦ": 334,
      "è®¡ç®Ĺ": 335,
      "åĲĪéĢĤçļĦ": 336,
      "æ³¨æĦıåĬĽæľºåĪ¶": 337,
      "æĿĤè´¨": 338,
      "åħĪçľĭ": 339,
      "ä½įç½®ç¼ĸçłģ": 340,
      "CPUä¸Ĭ": 341,
      "Transformer": 342,
      "Py": 343,
      "Tor": 344,
      "ch": 345,
      "¡º": 346,
      "¢Ħ": 347,
      "¢åı¥åŃĲ": 348,
      "¤äº": 349,
      "¥½": 350,
      "¥ä¸İ": 351,
      "¥æĺ¯": 352,
      "¥éĹ": 353,
      "¥éĩį": 354,
      "¥æķ°": 355,
      "¦éĢ": 356,
      "§åĪ¶": 357,
      "¨åħ³": 358,
      "¨åı¥åŃĲ": 359,
      "¨åĪĨ": 360,
      "¨CPUä¸Ĭ": 361,
      "¨Py": 362,
      "©º": 363,
      "©åĨĻ": 364,
      "ªĮ": 365,
      "«éĢ": 366,
      "«éĩı": 367,
      "«ç¼": 368,
      "«èĩªæ³¨æĦıåĬĽçļĦ": 369,
      "¬ç»ĵæŀĦ": 370,
      "®µ": 371,
      "®ä½įç½®": 372,
      "®çŃ": 373,
      "®åĬł": 374,
      "¯ı": 375,
      "¯Ł": 376,
      "¯ä»": 377,
      "¯ä»Ģä¹Ī": 378,
      "¯ç§": 379,
      "°ç": 380,
      "°ģ": 381,
      "°å¤§": 382,
      "±Ĥ": 383,
      "±èĥ½": 384,
      "³æĸ¹": 385,
      "³å®": 386,
      "´ä¸Ģ": 387,
      "´¯ç§": 388,
      "µĮåħ": 389,
      "¶ä»": 390,
      "·å": 391,
      "·ĳ": 392,
      "·æ¨¡åŀĭ": 393,
      "¸Ĺ": 394,
      "¹æ": 395,
      "¹åı": 396,
      "¹è¿": 397,
      "¹å¤§": 398,
      "¹åĨĻ": 399,
      "ºè®": 400,
      "ºä»Ģä¹Ī": 401,
      "»æķ°": 402,
      "»éĻ": 403,
      "»ºè®": 404,
      "½½": 405,
      "½Ĵ": 406,
      "½ĵ": 407,
      "½ç®Ģ": 408,
      "¾ĵ": 409,
      "¾Ĺ": 410,
      "¾ç½®": 411,
      "¾åıĺæħ¢": 412,
      "¿ħ": 413,
      "¿«éĢ": 414,
      "åİ": 415,
      "åĳ": 416,
      "åĿ": 417,
      "å¥½": 418,
      "å¯Ł": 419,
      "å±Ĥ": 420,
      "åµĮåħ": 421,
      "å½ĵ": 422,
      "å¿«éĢ": 423,
      "æİ": 424,
      "æı": 425,
      "æĶ": 426,
      "æĹ": 427,
      "æŃ": 428,
      "æ¢¯åº¦": 429,
      "æ®µ": 430,
      "æ¯ı": 431,
      "æ¸Ĺ": 432,
      "çģ": 433,
      "çĤ": 434,
      "çĥ": 435,
      "çī": 436,
      "çŁ": 437,
      "ç©º": 438,
      "ç´¯ç§": 439,
      "èĢ": 440,
      "èĦ": 441,
      "èİ": 442,
      "èĲ": 443,
      "è°ģ": 444,
      "è·ĳ": 445,
      "è½½": 446,
      "è¾ĵ": 447,
      "éĥ": 448,
      "éħ": 449,
      "éĺ": 450,
      "éļ": 451,
      "éĿ": 452,
      "é¡º": 453,
      "é¢Ħ": 454,
      "éªĮ": 455,
      "Ģ§": 456,
      "Ģĥ": 457,
      "Ģå°ı": 458,
      "ĢéĶ": 459,
      "ĢåĲİ": 460,
      "Ģçģ": 461,
      "ģæį": 462,
      "ģä½İ": 463,
      "ģè¡¨": 464,
      "Ĥæķ°": 465,
      "Ĥå¯Ł": 466,
      "ħè¯": 467,
      "ĨåħĪ": 468,
      "Ĩå¤§": 469,
      "Ĩè§£": 470,
      "ĩè®Ńç»ĥ": 471,
      "ĩæĿĤè´¨": 472,
      "Īçİĩ": 473,
      "īæ¨¡åŀĭ": 474,
      "īįåĲĳ": 475,
      "Ĭè¯": 476,
      "ĬèĴ¸é¦ıæ°´": 477,
      "ĭéĿ": 478,
      "Įç¼": 479,
      "ĮæĽ´": 480,
      "įåı": 481,
      "įçĶ¨": 482,
      "įä½İ": 483,
      "įæĿĥéĩį": 484,
      "įæ¸Ĺ": 485,
      "İæĺ": 486,
      "ıåı": 487,
      "ıå°": 488,
      "ıéķ¿åº¦": 489,
      "ıçŃ": 490,
      "Ĳåį": 491,
      "ĲĨè§£": 492,
      "ĳåı": 493,
      "ĳç»": 494,
      "ĴĮåħ": 495,
      "ĵæħ¢": 496,
      "Ķ¾": 497,
      "ĸè¯į": 498,
      "ĺæĸ¹": 499,
      "ĺåĮĸ": 500,
      "ĺ¯ä»Ģä¹Ī": 501,
      "Ļå¼": 502,
      "Ļä¸Ģ": 503,
      "ĻåŃ¦": 504,
      "Ļæł": 505,
      "Ļåĩº": 506,
      "ļè¯": 507,
      "ļæľ": 508,
      "Ľè¡": 509,
      "ľçĶ¨æ": 510,
      "ľç»ĥ": 511,
      "ľ¨åı¥åŃĲ": 512,
      "Ŀĥéĩį": 513,
      "ĿæĮ": 514,
      "Łåħ": 515,
      "Łå¤": 516,
      "Ńä¸": 517,
      "ŃåºıåĪĹ": 518,
      "Ńä»İ": 519,
      "ï¼Ľ": 520,
      "ä¸ºä»Ģä¹Ī": 521,
      "ä¸ĭéĿ": 522,
      "¨æ¢¯åº¦": 523,
      "åĬ¨æ¢¯åº¦": 524,
      "ä½Ļå¼": 525,
      "ä½ľçĶ¨æ": 526,
      "åĪ°å¤§": 527,
      "©æ¨¡åŀĭ": 528,
      "©æĶ¾": 529,
      "çĶ¨æĿĥéĩį": 530,
      "åıįåĲĳ": 531,
      "åıįæ¸Ĺ": 532,
      "çļĦåħ³ç³»": 533,
      "çļĦçī": 534,
      "çļĦä½ľçĶ¨æ": 535,
      "éĩĬèĴ¸é¦ıæ°´": 536,
      "ç»Ļåĩº": 537,
      "è®¾ç½®": 538,
      "è®©æ¨¡åŀĭ": 539,
      "éĢıçŃ": 540,
      "å°±èĥ½": 541,
      "æ³¨åħ³": 542,
      "æĺİæĺ": 543,
      "è¯ģæį": 544,
      "įå½Ĵ": 545,
      "įå¿ħ": 546,
      "ä¸İè®Ńç»ĥ": 547,
      "ä¸İèĩª": 548,
      "ä¸İä¼": 549,
      "ä¸İçº¯æ°´": 550,
      "ä¸İæ¢¯åº¦": 551,
      "ä¸İçŁ": 552,
      "å¤ĩæĸ¹": 553,
      "æķĪçİĩ": 554,
      "æķĻåŃ¦": 555,
      "çĶ¨å¼łéĩı": 556,
      "çĶ¨ä¸Ģç§": 557,
      "çĶ¨é¢Ħ": 558,
      "åħ³éĹ": 559,
      "åħ³æ³¨åħ³": 560,
      "å°ıç½": 561,
      "å°ıæ¨¡åŀĭ": 562,
      "å°ıè¯į": 563,
      "å°ıåĪ°å¤§": 564,
      "å°ıä¸İæ¢¯åº¦": 565,
      "æĺ¯æĮ": 566,
      "æĺ¯ä¸Ģç§": 567,
      "æĺ¯éĢļè¿ĩ": 568,
      "å¼ĢéĶ": 569,
      "å¼ıåı": 570,
      "åĨįçĶ¨": 571,
      "åĲ«éĩı": 572,
      "è¿Ļæł": 573,
      "èĩ´": 574,
      "ä¸ĢåĮĸ": 575,
      "éĩıéļ": 576,
      "æľĢåĲİ": 577,
      "éĹ®çŃ": 578,
      "éĹ´ä¸Ģ": 579,
      "åħĪçĶ¨é¢Ħ": 580,
      "è®Ńç»ĥæŃ": 581,
      "éĢļä¿": 582,
      "éĢļå¼łéĩı": 583,
      "å¤§ä¼ļ": 584,
      "æķ°éĩı": 585,
      "åºıåĪĹä¸ŃçļĦ": 586,
      "èĴ¸é¦ıèİ": 587,
      "å¹³æĸ¹": 588,
      "åĩıå°": 589,
      "æŀģä½İ": 590,
      "ç¤ºç©º": 591,
      "è§Ĥå¯Ł": 592,
      "ĤèĢĥ": 593,
      "ä½¿çĶ¨æĿĥéĩį": 594,
      "ä¹łçİĩ": 595,
      "åŃ¦ä¹łå": 596,
      "åŃ¦ä¹łçİĩ": 597,
      "è¿ĩå¤§ä¼ļ": 598,
      "å¦Ĥä½ķåľ": 599,
      "å¦Ĥä½ķå¿«éĢ": 600,
      "å¦Ĥä½ķè®¾ç½®": 601,
      "æĬĬåı¥åŃĲ": 602,
      "æĬĬæ®µ": 603,
      "æĬĬä¸ĭéĿ": 604,
      "ä¿ĿæĮ": 605,
      "å®ĺæĸ¹": 606,
      "åįķ": 607,
      "åľ°ç": 608,
      "å¢ŀéķ¿": 609,
      "å¢ŀåĬł": 610,
      "æī©åĨĻ": 611,
      "æī¹å¤§": 612,
      "æį®åĬł": 613,
      "æł¹è¿": 614,
      "çº¯æ°´æĺ¯æĮ": 615,
      "è¦ģçļĦçī": 616,
      "è¦ģä½¿çĶ¨æĿĥéĩį": 617,
      "éĶ®ä½įç½®": 618,
      "éĻįä½İ": 619,
      "ĩæĸ¹æł¹è¿": 620,
      "ä¸ªè¯įå": 621,
      "ä¸ªå°ıç½": 622,
      "ä¸ŃçļĦé¡º": 623,
      "åĪ¶å¤ĩæĸ¹": 624,
      "åĪĨéħ": 625,
      "ä»İèĢ": 626,
      "è¯įåľ¨åı¥åŃĲ": 627,
      "åĨįåĨ³å®": 628,
      "åĨįåĨĻä¸Ģ": 629,
      "åĮºåĪ«": 630,
      "åĮºåĪĨåħĪ": 631,
      "åĲİåħ³ç³»": 632,
      "æĿĥéĩįèĥ½": 633,
      "ç®Ģåįķ": 634,
      "éĢļè¿ĩåĪĨéħ": 635,
      "åºıåĪĹéķ¿åº¦è¿ĩå¤§ä¼ļ": 636,
      "åºıåĪĹéķ¿åº¦å¢ŀåĬł": 637,
      "èĴ¸é¦ıæ°´æĺ¯éĢļè¿ĩ": 638,
      "ä»Ģä¹Īæĺ¯RMSNorm": 639,
      "ä»Ģä¹Īæĺ¯æ³¨æĦıåĬĽæľºåĪ¶": 640,
      "ä¼ļæĺİæĺ": 641,
      "å¹¶æİ": 642,
      "å¹¶ä¿ĿæĮ": 643,
      "åĩºå±Ĥ": 644,
      "è¡¨ä¸İçŁ": 645,
      "è§£éĩĬèĴ¸é¦ıæ°´": 646,
      "ä½¿çĶ¨èĩªæ³¨æĦıåĬĽ": 647,
      "ä½¿çĶ¨å°ıæ¨¡åŀĭ": 648,
      "ä¹łåīįåĲĳ": 649,
      "èĩªæ³¨æĦıåĬĽçļĦè®¡ç®Ĺ": 650,
      "RMSNormæĺ¯ä¸Ģç§": 651,
      "æĽ´éĢļä¿": 652,
      "åħ±äº«åµĮåħ": 653,
      "ç»ĵæŀĦç®Ģåįķ": 654,
      "è®¡ç®Ĺå¼ĢéĶ": 655,
      "åĲĪéĢĤçļĦåŃ¦ä¹łçİĩ": 656,
      "åĲĪéĢĤçļĦæī¹å¤§": 657,
      "æ³¨æĦıåĬĽæľºåĪ¶éĢļè¿ĩåĪĨéħ": 658,
      "åħĪçľĭæ¯ı": 659,
      "åħĪçľĭå®ĺæĸ¹": 660,
      "ä½įç½®ç¼ĸçłģåĳ": 661,
      "ä½įç½®ç¼ĸçłģçļĦä½ľçĶ¨æ": 662,
      "CPUä¸Ĭä¼ļæĺİæĺ": 663,
      "TransformerçĶ¨ä¸Ģç§": 664,
      "Transformerä½¿çĶ¨èĩªæ³¨æĦıåĬĽ": 665,
      "Torch": 666,
      "¢åı¥åŃĲæī©åĨĻ": 667,
      "¤äºĨå¤§": 668,
      "¥ä¸İè¾ĵ": 669,
      "¥æĺ¯èĴ¸é¦ı": 670,
      "¥éĹ¨Py": 671,
      "¥éĩįçĤ": 672,
      "¦éĢĢçģ": 673,
      "§åĪ¶è®Ńç»ĥæŃ": 674,
      "¨åĪĨæĿĤè´¨": 675,
      "¨CPUä¸Ĭè®Ńç»ĥ": 676,
      "«ç¼ĵæħ¢": 677,
      "«èĩªæ³¨æĦıåĬĽçļĦæĸ¹æ³ķ": 678,
      "¯ä»¥æĺ¯èĴ¸é¦ı": 679,
      "¶ä»ĸè¯į": 680,
      "·å¾Ĺ": 681,
      "·æ¨¡åŀĭå°±èĥ½": 682,
      "¹æĢ§": 683,
      "¹åıĤèĢĥ": 684,
      "¹åĨĻæĽ´éĢļä¿": 685,
      "»æķ°æį®åĬł": 686,
      "»éĻ¤äºĨå¤§": 687,
      "»ºè®®": 688,
      "½ç®ĢåĮĸ": 689,
      "åİ»éĻ¤äºĨå¤§": 690,
      "åĿĩæĸ¹æł¹è¿": 691,
      "å¥½åľ°ç": 692,
      "å½ĵåºıåĪĹéķ¿åº¦å¢ŀåĬł": 693,
      "æıĲåį": 694,
      "æĶ¹åĨĻæĽ´éĢļä¿": 695,
      "æĹ¶": 696,
      "çĥŃä»İ": 697,
      "ç´¯ç§¯": 698,
      "èĦļæľ": 699,
      "èĲ½ç®ĢåĮĸ": 700,
      "è·ĳéĢļå¼łéĩı": 701,
      "è½½ä¸İè®Ńç»ĥ": 702,
      "éĥ¨åĪĨæĿĤè´¨": 703,
      "éĺħè¯": 704,
      "éªĮè¯ģæį": 705,
      "ģè¡¨ç¤ºç©º": 706,
      "Ĥæķ°æķ°éĩı": 707,
      "ĩè®Ńç»ĥæķĪçİĩ": 708,
      "ĩæĿĤè´¨åĲ«éĩı": 709,
      "īæ¨¡åŀĭè¯įåľ¨åı¥åŃĲ": 710,
      "Ĭè¯īæ¨¡åŀĭè¯įåľ¨åı¥åŃĲ": 711,
      "Įç¼©æĶ¾": 712,
      "ĮæĽ´å¥½åľ°ç": 713,
      "įåı«èĩªæ³¨æĦıåĬĽçļĦæĸ¹æ³ķ": 714,
      "įæĿĥéĩįè®©æ¨¡åŀĭ": 715,
      "ıéķ¿åº¦å¹³æĸ¹": 716,
      "ĲĨè§£åºıåĪĹä¸ŃçļĦ": 717,
      "ĳåıĤæķ°æķ°éĩı": 718,
      "ĳç»ľç»ĥ": 719,
      "ĴĮåħ¶ä»ĸè¯į": 720,
      "ļè¯¥éĩįçĤ": 721,
      "Ľè¡Įç¼©æĶ¾": 722,
      "Łåħ¥éĹ¨Py": 723,
      "Łå¤±": 724,
      "Ńä¸įå¿ħ": 725,
      "ä¸ºä»Ģä¹Īè¦ģä½¿çĶ¨æĿĥéĩį": 726,
      "ä½Ļå¼¦éĢĢçģ": 727,
      "åıįåĲĳä¸İä¼": 728,
      "åıįæ¸ĹéĢıçŃ": 729,
      "ç»ĻåĩºåŃ¦ä¹łå": 730,
      "įå½Ĵä¸ĢåĮĸ": 731,
      "ä¸İèĩªåĬ¨æ¢¯åº¦": 732,
      "ä¸İçº¯æ°´åĮºåĪ«": 733,
      "æķĻåŃ¦éĹ®çŃ": 734,
      "çĶ¨å¼łéĩıåĿĩæĸ¹æł¹è¿": 735,
      "åħ³éĹŃä¸įå¿ħ": 736,
      "åħ³æ³¨åħ³éĶ®ä½įç½®": 737,
      "å°ıè¯įè¡¨ä¸İçŁ": 738,
      "å°ıä¸İæ¢¯åº¦ç´¯ç§¯": 739,
      "å¼ıåı¯ä»¥æĺ¯èĴ¸é¦ı": 740,
      "åĨįçĶ¨ä½Ļå¼¦éĢĢçģ": 741,
      "è¿Ļæł·æ¨¡åŀĭå°±èĥ½": 742,
      "éĩıéļıéķ¿åº¦å¹³æĸ¹": 743,
      "æľĢåĲİéĺħè¯": 744,
      "éĹ´ä¸Ģèĩ´": 745,
      "åħĪçĶ¨é¢ĦçĥŃä»İ": 746,
      "èĴ¸é¦ıèİ·å¾Ĺ": 747,
      "åĩıå°ĳåıĤæķ°æķ°éĩı": 748,
      "æŀģä½İçļĦæ°´": 749,
      "è§Ĥå¯ŁéªĮè¯ģæį": 750,
      "å¦Ĥä½ķåľ¨CPUä¸Ĭè®Ńç»ĥ": 751,
      "å¦Ĥä½ķå¿«éĢŁåħ¥éĹ¨Py": 752,
      "å¦Ĥä½ķè®¾ç½®åĲĪéĢĤçļĦåŃ¦ä¹łçİĩ": 753,
      "æĬĬåı¥åŃĲæĶ¹åĨĻæĽ´éĢļä¿": 754,
      "æĬĬæ®µèĲ½ç®ĢåĮĸ": 755,
      "æĬĬä¸ĭéĿ¢åı¥åŃĲæī©åĨĻ": 756,
      "çº¯æ°´æĺ¯æĮĩæĿĤè´¨åĲ«éĩı": 757,
      "è¦ģçļĦçī¹æĢ§": 758,
      "ä¸ªè¯įåĴĮåħ¶ä»ĸè¯į": 759,
      "ä¸ªå°ıç½ĳç»ľç»ĥ": 760,
      "ä¸ŃçļĦé¡ºåºı": 761,
      "åĪ¶å¤ĩæĸ¹å¼ıåı¯ä»¥æĺ¯èĴ¸é¦ı": 762,
      "ä»İèĢĮæĽ´å¥½åľ°ç": 763,
      "åĨįåĨ³å®ļè¯¥éĩįçĤ": 764,
      "åĨįåĨĻä¸Ģä¸ªå°ıç½ĳç»ľç»ĥ": 765,
      "åĮºåĪĨåħĪåĲİåħ³ç³»": 766,
      "æĿĥéĩįèĥ½åĩıå°ĳåıĤæķ°æķ°éĩı": 767,
      "åºıåĪĹéķ¿åº¦è¿ĩå¤§ä¼ļåıĺæħ¢": 768,
      "èĴ¸é¦ıæ°´æĺ¯éĢļè¿ĩèĴ¸é¦ıèİ·å¾Ĺ": 769,
      "å¹¶æİ§åĪ¶è®Ńç»ĥæŃ": 770,
      "å¹¶ä¿ĿæĮģè¡¨ç¤ºç©º": 771,
      "åĩºå±ĤæĿĥéĩįèĥ½åĩıå°ĳåıĤæķ°æķ°éĩı": 772,
      "è§£éĩĬèĴ¸é¦ıæ°´ä¸İçº¯æ°´åĮºåĪ«": 773,
      "èĩªæ³¨æĦıåĬĽçļĦè®¡ç®Ĺéĩıéļıéķ¿åº¦å¹³æĸ¹": 774,
      "RMSNormæĺ¯ä¸Ģç§įå½Ĵä¸ĢåĮĸ": 775,
      "åħ±äº«åµĮåħ¥ä¸İè¾ĵ": 776,
      "è®¡ç®Ĺå¼ĢéĶĢå°ı": 777,
      "åĲĪéĢĤçļĦæī¹å¤§å°ıä¸İæ¢¯åº¦ç´¯ç§¯": 778,
      "æ³¨æĦıåĬĽæľºåĪ¶éĢļè¿ĩåĪĨéħįæĿĥéĩįè®©æ¨¡åŀĭ": 779,
      "åħĪçľĭæ¯ıä¸ªè¯įåĴĮåħ¶ä»ĸè¯į": 780,
      "åħĪçľĭå®ĺæĸ¹ç¤ºä¾ĭ": 781,
      "ä½įç½®ç¼ĸçłģåĳĬè¯īæ¨¡åŀĭè¯įåľ¨åı¥åŃĲ": 782,
      "ä½įç½®ç¼ĸçłģçļĦä½ľçĶ¨æĺ¯ä»Ģä¹Ī": 783,
      "CPUä¸Ĭä¼ļæĺİæĺ¾åıĺæħ¢": 784,
      "TransformerçĶ¨ä¸Ģç§įåı«èĩªæ³¨æĦıåĬĽçļĦæĸ¹æ³ķ": 785,
      "«ç¼ĵæħ¢éĻįä½İ": 786,
      "¹åıĤèĢĥè°ģ": 787,
      "»æķ°æį®åĬłè½½ä¸İè®Ńç»ĥ": 788,
      "åİ»éĻ¤äºĨå¤§éĥ¨åĪĨæĿĤè´¨": 789,
      "å½ĵåºıåĪĹéķ¿åº¦å¢ŀåĬłæĹ¶": 790,
      "æıĲåįĩè®Ńç»ĥæķĪçİĩ": 791,
      "èĦļæľ¬ç»ĵæŀĦ": 792,
      "è·ĳéĢļå¼łéĩıä¸İèĩªåĬ¨æ¢¯åº¦": 793,
      "ĲĨè§£åºıåĪĹä¸ŃçļĦåħ³ç³»": 794,
      "ä¸ºä»Ģä¹Īè¦ģä½¿çĶ¨æĿĥéĩįåħ±äº«": 795,
      "åıįåĲĳä¸İä¼ĺåĮĸ": 796,
      "åıįæ¸ĹéĢıçŃī": 797,
      "ç»ĻåĩºåŃ¦ä¹łå»ºè®®": 798,
      "æķĻåŃ¦éĹ®çŃĶ": 799,
      "çĶ¨å¼łéĩıåĿĩæĸ¹æł¹è¿Ľè¡Įç¼©æĶ¾": 800,
      "åħ³éĹŃä¸įå¿ħè¦ģçļĦçī¹æĢ§": 801,
      "å°ıè¯įè¡¨ä¸İçŁŃåºıåĪĹ": 802,
      "åĨįçĶ¨ä½Ļå¼¦éĢĢçģ«ç¼ĵæħ¢éĻįä½İ": 803,
      "è¿Ļæł·æ¨¡åŀĭå°±èĥ½åĮºåĪĨåħĪåĲİåħ³ç³»": 804,
      "æľĢåĲİéĺħè¯»æķ°æį®åĬłè½½ä¸İè®Ńç»ĥ": 805,
      "åħĪçĶ¨é¢ĦçĥŃä»İå°ıåĪ°å¤§": 806,
      "è§Ĥå¯ŁéªĮè¯ģæįŁå¤±": 807,
      "å¦Ĥä½ķå¿«éĢŁåħ¥éĹ¨PyTorch": 808,
      "æĬĬåı¥åŃĲæĶ¹åĨĻæĽ´éĢļä¿Ĺ": 809,
      "çº¯æ°´æĺ¯æĮĩæĿĤè´¨åĲ«éĩıæŀģä½İçļĦæ°´": 810,
      "ä»İèĢĮæĽ´å¥½åľ°çĲĨè§£åºıåĪĹä¸ŃçļĦåħ³ç³»": 811,
      "åĨįåĨ³å®ļè¯¥éĩįçĤ¹åıĤèĢĥè°ģ": 812,
      "åĨįåĨĻä¸Ģä¸ªå°ıç½ĳç»ľç»ĥä¹łåīįåĲĳ": 813,
      "èĴ¸é¦ıæ°´æĺ¯éĢļè¿ĩèĴ¸é¦ıèİ·å¾ĹçļĦæ°´": 814,
      "å¹¶æİ§åĪ¶è®Ńç»ĥæŃ¥æķ°": 815,
      "å¹¶ä¿ĿæĮģè¡¨ç¤ºç©ºéĹ´ä¸Ģèĩ´": 816,
      "èĩªæ³¨æĦıåĬĽçļĦè®¡ç®Ĺéĩıéļıéķ¿åº¦å¹³æĸ¹å¢ŀéķ¿": 817,
      "RMSNormæĺ¯ä¸Ģç§įå½Ĵä¸ĢåĮĸæĸ¹æ³ķ": 818,
      "åħ±äº«åµĮåħ¥ä¸İè¾ĵåĩºå±ĤæĿĥéĩįèĥ½åĩıå°ĳåıĤæķ°æķ°éĩı": 819,
      "æ³¨æĦıåĬĽæľºåĪ¶éĢļè¿ĩåĪĨéħįæĿĥéĩįè®©æ¨¡åŀĭåħ³æ³¨åħ³éĶ®ä½įç½®": 820,
      "åħĪçľĭæ¯ıä¸ªè¯įåĴĮåħ¶ä»ĸè¯įçļĦåħ³ç³»": 821,
      "ä½įç½®ç¼ĸçłģåĳĬè¯īæ¨¡åŀĭè¯įåľ¨åı¥åŃĲä¸ŃçļĦé¡ºåºı": 822,
      "æľĢåĲİéĺħè¯»æķ°æį®åĬłè½½ä¸İè®Ńç»ĥèĦļæľ¬ç»ĵæŀĦ": 823
    },
    "merges": [
      [
        "ï",
        "¼"
      ],
      [
        "ä",
        "¸"
      ],
      [
        "ï¼",
        "Į"
      ],
      [
        "¨",
        "æ"
      ],
      [
        "å",
        "Ĭ"
      ],
      [
        "ç",
        "Ķ"
      ],
      [
        "ã",
        "Ģ"
      ],
      [
        "å",
        "ħ"
      ],
      [
        "ä",
        "½"
      ],
      [
        "å",
        "Ī"
      ],
      [
        "ãĢ",
        "Ĥ"
      ],
      [
        "©",
        "æ"
      ],
      [
        "çĶ",
        "¨æ"
      ],
      [
        "å",
        "ı"
      ],
      [
        "ç",
        "ļ"
      ],
      [
        "çļ",
        "Ħ"
      ],
      [
        "å",
        "º"
      ],
      [
        "é",
        "ĩ"
      ],
      [
        "Ī",
        "·"
      ],
      [
        "ī",
        "ĭ"
      ],
      [
        "åĬ",
        "©æ"
      ],
      [
        "çĶ¨æ",
        "Ī·"
      ],
      [
        "åĬ©æ",
        "īĭ"
      ],
      [
        "ç",
        "»"
      ],
      [
        "è",
        "®"
      ],
      [
        "é",
        "Ģ"
      ],
      [
        "ä",
        "»"
      ],
      [
        "å",
        "°"
      ],
      [
        "æ",
        "³"
      ],
      [
        "æ",
        "ĺ"
      ],
      [
        "è",
        "¯"
      ],
      [
        "į",
        "å"
      ],
      [
        "ä",
        "¹"
      ],
      [
        "ï¼",
        "Ł"
      ],
      [
        "ä¸",
        "İ"
      ],
      [
        "°",
        "´"
      ],
      [
        "å",
        "¤"
      ],
      [
        "å",
        "Ń"
      ],
      [
        "æ",
        "ķ"
      ],
      [
        "æ",
        "ĸ"
      ],
      [
        "æ",
        "°´"
      ],
      [
        "ï¼",
        "ļ"
      ],
      [
        "çĶ",
        "¨"
      ],
      [
        "åħ",
        "³"
      ],
      [
        "å°",
        "ı"
      ],
      [
        "æĺ",
        "¯"
      ],
      [
        "æĸ",
        "¹"
      ],
      [
        "o",
        "r"
      ],
      [
        "å",
        "¼"
      ],
      [
        "å",
        "Ĩ"
      ],
      [
        "å",
        "Į"
      ],
      [
        "å",
        "Ĳ"
      ],
      [
        "ç",
        "½"
      ],
      [
        "è",
        "¿"
      ],
      [
        "è",
        "ĩ"
      ],
      [
        "Ħ",
        "ı"
      ],
      [
        "ä¸",
        "Ģ"
      ],
      [
        "¨æ",
        "Ħı"
      ],
      [
        "åĬ",
        "Ľ"
      ],
      [
        "åº",
        "¦"
      ],
      [
        "åº",
        "ı"
      ],
      [
        "éĩ",
        "ı"
      ],
      [
        "ç»",
        "ĥ"
      ],
      [
        "æ³",
        "¨æĦı"
      ],
      [
        "æ³¨æĦı",
        "åĬĽ"
      ],
      [
        "¡",
        "å"
      ],
      [
        "¦",
        "ı"
      ],
      [
        "¨",
        "¡å"
      ],
      [
        "¸",
        "é"
      ],
      [
        "º",
        "åĪ"
      ],
      [
        "æ",
        "ľ"
      ],
      [
        "æ",
        "Ŀ"
      ],
      [
        "ç",
        "®"
      ],
      [
        "ç",
        "¼"
      ],
      [
        "è",
        "Ĵ"
      ],
      [
        "é",
        "ķ"
      ],
      [
        "é",
        "Ĺ"
      ],
      [
        "Ģ",
        "ä¹"
      ],
      [
        "ŀ",
        "ĭ"
      ],
      [
        "Ń",
        "ç»ĥ"
      ],
      [
        "åħ",
        "Ī"
      ],
      [
        "åĪ",
        "Ĺ"
      ],
      [
        "éĩ",
        "į"
      ],
      [
        "è®",
        "Ńç»ĥ"
      ],
      [
        "éĢ",
        "ļ"
      ],
      [
        "ä»",
        "Ģä¹"
      ],
      [
        "å¤",
        "§"
      ],
      [
        "æķ",
        "°"
      ],
      [
        "or",
        "m"
      ],
      [
        "ç½",
        "®"
      ],
      [
        "èĩ",
        "ª"
      ],
      [
        "åºı",
        "åĪĹ"
      ],
      [
        "¨¡å",
        "ŀĭ"
      ],
      [
        "¸é",
        "¦ı"
      ],
      [
        "èĴ",
        "¸é¦ı"
      ],
      [
        "éķ",
        "¿"
      ],
      [
        "ä»Ģä¹",
        "Ī"
      ],
      [
        "¤",
        "º"
      ],
      [
        "¥",
        "åŃ"
      ],
      [
        "¦",
        "Ĥ"
      ],
      [
        "³",
        "»"
      ],
      [
        "ä",
        "º"
      ],
      [
        "ä",
        "¼"
      ],
      [
        "å",
        "¹"
      ],
      [
        "å",
        "ĩ"
      ],
      [
        "å",
        "¦Ĥ"
      ],
      [
        "æ",
        "ħ"
      ],
      [
        "æ",
        "Ĭ"
      ],
      [
        "æ",
        "ŀ"
      ],
      [
        "æ",
        "¨¡åŀĭ"
      ],
      [
        "ç",
        "§"
      ],
      [
        "ç",
        "¤º"
      ],
      [
        "ç",
        "³»"
      ],
      [
        "è",
        "¡"
      ],
      [
        "è",
        "§"
      ],
      [
        "Ĥ",
        "è"
      ],
      [
        "ĥ",
        "éĩį"
      ],
      [
        "į",
        "ç½®"
      ],
      [
        "ãĢ",
        "ģ"
      ],
      [
        "ä½",
        "¿"
      ],
      [
        "ä½",
        "ķ"
      ],
      [
        "ä½",
        "įç½®"
      ],
      [
        "åı",
        "¥åŃ"
      ],
      [
        "ä¹",
        "ł"
      ],
      [
        "åŃ",
        "¦"
      ],
      [
        "åħ³",
        "ç³»"
      ],
      [
        "åĮ",
        "ĸ"
      ],
      [
        "è¿",
        "ĩ"
      ],
      [
        "èĩª",
        "æ³¨æĦıåĬĽ"
      ],
      [
        "éķ¿",
        "åº¦"
      ],
      [
        "å¦Ĥ",
        "ä½ķ"
      ],
      [
        "æħ",
        "¢"
      ],
      [
        "æĬ",
        "Ĭ"
      ],
      [
        "åı¥åŃ",
        "Ĳ"
      ],
      [
        "C",
        "P"
      ],
      [
        "M",
        "S"
      ],
      [
        "N",
        "orm"
      ],
      [
        "R",
        "MS"
      ],
      [
        "T",
        "r"
      ],
      [
        "U",
        "ä¸"
      ],
      [
        "a",
        "n"
      ],
      [
        "e",
        "r"
      ],
      [
        "f",
        "orm"
      ],
      [
        "s",
        "form"
      ],
      [
        "¡",
        "ç®"
      ],
      [
        "¢",
        "¯"
      ],
      [
        "¢",
        "ŀ"
      ],
      [
        "¦",
        "ģ"
      ],
      [
        "¯",
        "æ°´"
      ],
      [
        "±",
        "äº"
      ],
      [
        "´",
        "¨"
      ],
      [
        "º",
        "¯æ°´"
      ],
      [
        "¾",
        "ĭ"
      ],
      [
        "ä",
        "¿"
      ],
      [
        "ä",
        "¾ĭ"
      ],
      [
        "å",
        "®"
      ],
      [
        "å",
        "į"
      ],
      [
        "å",
        "ľ"
      ],
      [
        "å",
        "¢ŀ"
      ],
      [
        "æ",
        "ī"
      ],
      [
        "æ",
        "Į"
      ],
      [
        "æ",
        "į"
      ],
      [
        "æ",
        "Ľ"
      ],
      [
        "æ",
        "ł"
      ],
      [
        "ç",
        "İ"
      ],
      [
        "ç",
        "ľ"
      ],
      [
        "ç",
        "ł"
      ],
      [
        "ç",
        "Ń"
      ],
      [
        "ç",
        "º¯æ°´"
      ],
      [
        "è",
        "ĥ"
      ],
      [
        "è",
        "¦ģ"
      ],
      [
        "é",
        "Ķ"
      ],
      [
        "é",
        "Ļ"
      ],
      [
        "Ĥ",
        "çļĦ"
      ],
      [
        "ĩ",
        "æĸ¹"
      ],
      [
        "Ī",
        "éĢ"
      ],
      [
        "Į",
        "åħ"
      ],
      [
        "Ĳ",
        "ĳ"
      ],
      [
        "ĵ",
        "æŀ"
      ],
      [
        "ĸ",
        "çł"
      ],
      [
        "ĺ",
        "æħ¢"
      ],
      [
        "ł",
        "éĩı"
      ],
      [
        "Ń",
        "çļĦ"
      ],
      [
        "ä¸",
        "ª"
      ],
      [
        "ä¸",
        "ŃçļĦ"
      ],
      [
        "åĬ",
        "ł"
      ],
      [
        "åħ",
        "±äº"
      ],
      [
        "ä½",
        "İ"
      ],
      [
        "åĪ",
        "¶"
      ],
      [
        "åĪ",
        "Ĩ"
      ],
      [
        "åı",
        "ĺæħ¢"
      ],
      [
        "çļĦ",
        "æ°´"
      ],
      [
        "ç»",
        "ĵæŀ"
      ],
      [
        "è®",
        "¡ç®"
      ],
      [
        "ä»",
        "İ"
      ],
      [
        "æ³",
        "ķ"
      ],
      [
        "è¯",
        "į"
      ],
      [
        "è¯",
        "įå"
      ],
      [
        "įå",
        "Ĩ"
      ],
      [
        "įå",
        "Ĳĳ"
      ],
      [
        "æĸ¹",
        "æ³ķ"
      ],
      [
        "å¼",
        "łéĩı"
      ],
      [
        "åĨ",
        "Ļ"
      ],
      [
        "åĨ",
        "įåĨ"
      ],
      [
        "åĮ",
        "ºåĪ"
      ],
      [
        "åĲ",
        "İ"
      ],
      [
        "åĲ",
        "ĪéĢ"
      ],
      [
        "ä¸Ģ",
        "ç§"
      ],
      [
        "æ³¨æĦıåĬĽ",
        "æľ"
      ],
      [
        "ºåĪ",
        "¶"
      ],
      [
        "æĿ",
        "Ĥè"
      ],
      [
        "æĿ",
        "ĥéĩį"
      ],
      [
        "ç®",
        "Ģ"
      ],
      [
        "ç¼",
        "ĸçł"
      ],
      [
        "åħĪ",
        "çľ"
      ],
      [
        "éĢļ",
        "è¿ĩ"
      ],
      [
        "åºıåĪĹ",
        "éķ¿åº¦"
      ],
      [
        "èĴ¸é¦ı",
        "æ°´"
      ],
      [
        "ä»Ģä¹Ī",
        "æĺ¯"
      ],
      [
        "ä¼",
        "ļ"
      ],
      [
        "å¹",
        "¶"
      ],
      [
        "åĩ",
        "º"
      ],
      [
        "ç¤º",
        "ä¾ĭ"
      ],
      [
        "è¡",
        "¨"
      ],
      [
        "è§",
        "£"
      ],
      [
        "ä½¿",
        "çĶ¨"
      ],
      [
        "ä½įç½®",
        "ç¼ĸçł"
      ],
      [
        "ä¹ł",
        "å"
      ],
      [
        "èĩªæ³¨æĦıåĬĽ",
        "çļĦ"
      ],
      [
        "CP",
        "Uä¸"
      ],
      [
        "RMS",
        "Norm"
      ],
      [
        "Tr",
        "an"
      ],
      [
        "sform",
        "er"
      ],
      [
        "¢¯",
        "åº¦"
      ],
      [
        "æĽ",
        "´"
      ],
      [
        "çİ",
        "ĩ"
      ],
      [
        "èĥ",
        "½"
      ],
      [
        "åħ±äº",
        "«"
      ],
      [
        "ç»ĵæŀ",
        "Ħ"
      ],
      [
        "è®¡ç®",
        "Ĺ"
      ],
      [
        "åĲĪéĢ",
        "ĤçļĦ"
      ],
      [
        "æ³¨æĦıåĬĽæľ",
        "ºåĪ¶"
      ],
      [
        "æĿĤè",
        "´¨"
      ],
      [
        "åħĪçľ",
        "ĭ"
      ],
      [
        "ä½įç½®ç¼ĸçł",
        "ģ"
      ],
      [
        "CPUä¸",
        "Ĭ"
      ],
      [
        "Tran",
        "sformer"
      ],
      [
        "P",
        "y"
      ],
      [
        "T",
        "or"
      ],
      [
        "c",
        "h"
      ],
      [
        "¡",
        "º"
      ],
      [
        "¢",
        "Ħ"
      ],
      [
        "¢",
        "åı¥åŃĲ"
      ],
      [
        "¤",
        "äº"
      ],
      [
        "¥",
        "½"
      ],
      [
        "¥",
        "ä¸İ"
      ],
      [
        "¥",
        "æĺ¯"
      ],
      [
        "¥",
        "éĹ"
      ],
      [
        "¥",
        "éĩį"
      ],
      [
        "¥",
        "æķ°"
      ],
      [
        "¦",
        "éĢ"
      ],
      [
        "§",
        "åĪ¶"
      ],
      [
        "¨",
        "åħ³"
      ],
      [
        "¨",
        "åı¥åŃĲ"
      ],
      [
        "¨",
        "åĪĨ"
      ],
      [
        "¨",
        "CPUä¸Ĭ"
      ],
      [
        "¨",
        "Py"
      ],
      [
        "©",
        "º"
      ],
      [
        "©",
        "åĨĻ"
      ],
      [
        "ª",
        "Į"
      ],
      [
        "«",
        "éĢ"
      ],
      [
        "«",
        "éĩı"
      ],
      [
        "«",
        "ç¼"
      ],
      [
        "«",
        "èĩªæ³¨æĦıåĬĽçļĦ"
      ],
      [
        "¬",
        "ç»ĵæŀĦ"
      ],
      [
        "®",
        "µ"
      ],
      [
        "®",
        "ä½įç½®"
      ],
      [
        "®",
        "çŃ"
      ],
      [
        "®",
        "åĬł"
      ],
      [
        "¯",
        "ı"
      ],
      [
        "¯",
        "Ł"
      ],
      [
        "¯",
        "ä»"
      ],
      [
        "¯",
        "ä»Ģä¹Ī"
      ],
      [
        "¯",
        "ç§"
      ],
      [
        "°",
        "ç"
      ],
      [
        "°",
        "ģ"
      ],
      [
        "°",
        "å¤§"
      ],
      [
        "±",
        "Ĥ"
      ],
      [
        "±",
        "èĥ½"
      ],
      [
        "³",
        "æĸ¹"
      ],
      [
        "³",
        "å®"
      ],
      [
        "´",
        "ä¸Ģ"
      ],
      [
        "´",
        "¯ç§"
      ],
      [
        "µ",
        "Įåħ"
      ],
      [
        "¶",
        "ä»"
      ],
      [
        "·",
        "å"
      ],
      [
        "·",
        "ĳ"
      ],
      [
        "·",
        "æ¨¡åŀĭ"
      ],
      [
        "¸",
        "Ĺ"
      ],
      [
        "¹",
        "æ"
      ],
      [
        "¹",
        "åı"
      ],
      [
        "¹",
        "è¿"
      ],
      [
        "¹",
        "å¤§"
      ],
      [
        "¹",
        "åĨĻ"
      ],
      [
        "º",
        "è®"
      ],
      [
        "º",
        "ä»Ģä¹Ī"
      ],
      [
        "»",
        "æķ°"
      ],
      [
        "»",
        "éĻ"
      ],
      [
        "»",
        "ºè®"
      ],
      [
        "½",
        "½"
      ],
      [
        "½",
        "Ĵ"
      ],
      [
        "½",
        "ĵ"
      ],
      [
        "½",
        "ç®Ģ"
      ],
      [
        "¾",
        "ĵ"
      ],
      [
        "¾",
        "Ĺ"
      ],
      [
        "¾",
        "ç½®"
      ],
      [
        "¾",
        "åıĺæħ¢"
      ],
      [
        "¿",
        "ħ"
      ],
      [
        "¿",
        "«éĢ"
      ],
      [
        "å",
        "İ"
      ],
      [
        "å",
        "ĳ"
      ],
      [
        "å",
        "Ŀ"
      ],
      [
        "å",
        "¥½"
      ],
      [
        "å",
        "¯Ł"
      ],
      [
        "å",
        "±Ĥ"
      ],
      [
        "å",
        "µĮåħ"
      ],
      [
        "å",
        "½ĵ"
      ],
      [
        "å",
        "¿«éĢ"
      ],
      [
        "æ",
        "İ"
      ],
      [
        "æ",
        "ı"
      ],
      [
        "æ",
        "Ķ"
      ],
      [
        "æ",
        "Ĺ"
      ],
      [
        "æ",
        "Ń"
      ],
      [
        "æ",
        "¢¯åº¦"
      ],
      [
        "æ",
        "®µ"
      ],
      [
        "æ",
        "¯ı"
      ],
      [
        "æ",
        "¸Ĺ"
      ],
      [
        "ç",
        "ģ"
      ],
      [
        "ç",
        "Ĥ"
      ],
      [
        "ç",
        "ĥ"
      ],
      [
        "ç",
        "ī"
      ],
      [
        "ç",
        "Ł"
      ],
      [
        "ç",
        "©º"
      ],
      [
        "ç",
        "´¯ç§"
      ],
      [
        "è",
        "Ģ"
      ],
      [
        "è",
        "Ħ"
      ],
      [
        "è",
        "İ"
      ],
      [
        "è",
        "Ĳ"
      ],
      [
        "è",
        "°ģ"
      ],
      [
        "è",
        "·ĳ"
      ],
      [
        "è",
        "½½"
      ],
      [
        "è",
        "¾ĵ"
      ],
      [
        "é",
        "ĥ"
      ],
      [
        "é",
        "ħ"
      ],
      [
        "é",
        "ĺ"
      ],
      [
        "é",
        "ļ"
      ],
      [
        "é",
        "Ŀ"
      ],
      [
        "é",
        "¡º"
      ],
      [
        "é",
        "¢Ħ"
      ],
      [
        "é",
        "ªĮ"
      ],
      [
        "Ģ",
        "§"
      ],
      [
        "Ģ",
        "ĥ"
      ],
      [
        "Ģ",
        "å°ı"
      ],
      [
        "Ģ",
        "éĶ"
      ],
      [
        "Ģ",
        "åĲİ"
      ],
      [
        "Ģ",
        "çģ"
      ],
      [
        "ģ",
        "æį"
      ],
      [
        "ģ",
        "ä½İ"
      ],
      [
        "ģ",
        "è¡¨"
      ],
      [
        "Ĥ",
        "æķ°"
      ],
      [
        "Ĥ",
        "å¯Ł"
      ],
      [
        "ħ",
        "è¯"
      ],
      [
        "Ĩ",
        "åħĪ"
      ],
      [
        "Ĩ",
        "å¤§"
      ],
      [
        "Ĩ",
        "è§£"
      ],
      [
        "ĩ",
        "è®Ńç»ĥ"
      ],
      [
        "ĩ",
        "æĿĤè´¨"
      ],
      [
        "Ī",
        "çİĩ"
      ],
      [
        "ī",
        "æ¨¡åŀĭ"
      ],
      [
        "ī",
        "įåĲĳ"
      ],
      [
        "Ĭ",
        "è¯"
      ],
      [
        "Ĭ",
        "èĴ¸é¦ıæ°´"
      ],
      [
        "ĭ",
        "éĿ"
      ],
      [
        "Į",
        "ç¼"
      ],
      [
        "Į",
        "æĽ´"
      ],
      [
        "į",
        "åı"
      ],
      [
        "į",
        "çĶ¨"
      ],
      [
        "į",
        "ä½İ"
      ],
      [
        "į",
        "æĿĥéĩį"
      ],
      [
        "į",
        "æ¸Ĺ"
      ],
      [
        "İ",
        "æĺ"
      ],
      [
        "ı",
        "åı"
      ],
      [
        "ı",
        "å°"
      ],
      [
        "ı",
        "éķ¿åº¦"
      ],
      [
        "ı",
        "çŃ"
      ],
      [
        "Ĳ",
        "åį"
      ],
      [
        "Ĳ",
        "Ĩè§£"
      ],
      [
        "ĳ",
        "åı"
      ],
      [
        "ĳ",
        "ç»"
      ],
      [
        "Ĵ",
        "Įåħ"
      ],
      [
        "ĵ",
        "æħ¢"
      ],
      [
        "Ķ",
        "¾"
      ],
      [
        "ĸ",
        "è¯į"
      ],
      [
        "ĺ",
        "æĸ¹"
      ],
      [
        "ĺ",
        "åĮĸ"
      ],
      [
        "ĺ",
        "¯ä»Ģä¹Ī"
      ],
      [
        "Ļ",
        "å¼"
      ],
      [
        "Ļ",
        "ä¸Ģ"
      ],
      [
        "Ļ",
        "åŃ¦"
      ],
      [
        "Ļ",
        "æł"
      ],
      [
        "Ļ",
        "åĩº"
      ],
      [
        "ļ",
        "è¯"
      ],
      [
        "ļ",
        "æľ"
      ],
      [
        "Ľ",
        "è¡"
      ],
      [
        "ľ",
        "çĶ¨æ"
      ],
      [
        "ľ",
        "ç»ĥ"
      ],
      [
        "ľ",
        "¨åı¥åŃĲ"
      ],
      [
        "Ŀ",
        "ĥéĩį"
      ],
      [
        "Ŀ",
        "æĮ"
      ],
      [
        "Ł",
        "åħ"
      ],
      [
        "Ł",
        "å¤"
      ],
      [
        "Ń",
        "ä¸"
      ],
      [
        "Ń",
        "åºıåĪĹ"
      ],
      [
        "Ń",
        "ä»İ"
      ],
      [
        "ï¼",
        "Ľ"
      ],
      [
        "ä¸",
        "ºä»Ģä¹Ī"
      ],
      [
        "ä¸",
        "ĭéĿ"
      ],
      [
        "¨æ",
        "¢¯åº¦"
      ],
      [
        "åĬ",
        "¨æ¢¯åº¦"
      ],
      [
        "ä½",
        "Ļå¼"
      ],
      [
        "ä½",
        "ľçĶ¨æ"
      ],
      [
        "åĪ",
        "°å¤§"
      ],
      [
        "©æ",
        "¨¡åŀĭ"
      ],
      [
        "©æ",
        "Ķ¾"
      ],
      [
        "çĶ¨æ",
        "Ŀĥéĩį"
      ],
      [
        "åı",
        "įåĲĳ"
      ],
      [
        "åı",
        "įæ¸Ĺ"
      ],
      [
        "çļĦ",
        "åħ³ç³»"
      ],
      [
        "çļĦ",
        "çī"
      ],
      [
        "çļĦ",
        "ä½ľçĶ¨æ"
      ],
      [
        "éĩ",
        "ĬèĴ¸é¦ıæ°´"
      ],
      [
        "ç»",
        "Ļåĩº"
      ],
      [
        "è®",
        "¾ç½®"
      ],
      [
        "è®",
        "©æ¨¡åŀĭ"
      ],
      [
        "éĢ",
        "ıçŃ"
      ],
      [
        "å°",
        "±èĥ½"
      ],
      [
        "æ³",
        "¨åħ³"
      ],
      [
        "æĺ",
        "İæĺ"
      ],
      [
        "è¯",
        "ģæį"
      ],
      [
        "įå",
        "½Ĵ"
      ],
      [
        "įå",
        "¿ħ"
      ],
      [
        "ä¸İ",
        "è®Ńç»ĥ"
      ],
      [
        "ä¸İ",
        "èĩª"
      ],
      [
        "ä¸İ",
        "ä¼"
      ],
      [
        "ä¸İ",
        "çº¯æ°´"
      ],
      [
        "ä¸İ",
        "æ¢¯åº¦"
      ],
      [
        "ä¸İ",
        "çŁ"
      ],
      [
        "å¤",
        "ĩæĸ¹"
      ],
      [
        "æķ",
        "Īçİĩ"
      ],
      [
        "æķ",
        "ĻåŃ¦"
      ],
      [
        "çĶ¨",
        "å¼łéĩı"
      ],
      [
        "çĶ¨",
        "ä¸Ģç§"
      ],
      [
        "çĶ¨",
        "é¢Ħ"
      ],
      [
        "åħ³",
        "éĹ"
      ],
      [
        "åħ³",
        "æ³¨åħ³"
      ],
      [
        "å°ı",
        "ç½"
      ],
      [
        "å°ı",
        "æ¨¡åŀĭ"
      ],
      [
        "å°ı",
        "è¯į"
      ],
      [
        "å°ı",
        "åĪ°å¤§"
      ],
      [
        "å°ı",
        "ä¸İæ¢¯åº¦"
      ],
      [
        "æĺ¯",
        "æĮ"
      ],
      [
        "æĺ¯",
        "ä¸Ģç§"
      ],
      [
        "æĺ¯",
        "éĢļè¿ĩ"
      ],
      [
        "å¼",
        "ĢéĶ"
      ],
      [
        "å¼",
        "ıåı"
      ],
      [
        "åĨ",
        "įçĶ¨"
      ],
      [
        "åĲ",
        "«éĩı"
      ],
      [
        "è¿",
        "Ļæł"
      ],
      [
        "èĩ",
        "´"
      ],
      [
        "ä¸Ģ",
        "åĮĸ"
      ],
      [
        "éĩı",
        "éļ"
      ],
      [
        "æľ",
        "ĢåĲİ"
      ],
      [
        "éĹ",
        "®çŃ"
      ],
      [
        "éĹ",
        "´ä¸Ģ"
      ],
      [
        "åħĪ",
        "çĶ¨é¢Ħ"
      ],
      [
        "è®Ńç»ĥ",
        "æŃ"
      ],
      [
        "éĢļ",
        "ä¿"
      ],
      [
        "éĢļ",
        "å¼łéĩı"
      ],
      [
        "å¤§",
        "ä¼ļ"
      ],
      [
        "æķ°",
        "éĩı"
      ],
      [
        "åºıåĪĹ",
        "ä¸ŃçļĦ"
      ],
      [
        "èĴ¸é¦ı",
        "èİ"
      ],
      [
        "å¹",
        "³æĸ¹"
      ],
      [
        "åĩ",
        "ıå°"
      ],
      [
        "æŀ",
        "ģä½İ"
      ],
      [
        "ç¤º",
        "ç©º"
      ],
      [
        "è§",
        "Ĥå¯Ł"
      ],
      [
        "Ĥè",
        "Ģĥ"
      ],
      [
        "ä½¿",
        "çĶ¨æĿĥéĩį"
      ],
      [
        "ä¹ł",
        "çİĩ"
      ],
      [
        "åŃ¦",
        "ä¹łå"
      ],
      [
        "åŃ¦",
        "ä¹łçİĩ"
      ],
      [
        "è¿ĩ",
        "å¤§ä¼ļ"
      ],
      [
        "å¦Ĥä½ķ",
        "åľ"
      ],
      [
        "å¦Ĥä½ķ",
        "å¿«éĢ"
      ],
      [
        "å¦Ĥä½ķ",
        "è®¾ç½®"
      ],
      [
        "æĬĬ",
        "åı¥åŃĲ"
      ],
      [
        "æĬĬ",
        "æ®µ"
      ],
      [
        "æĬĬ",
        "ä¸ĭéĿ"
      ],
      [
        "ä¿",
        "ĿæĮ"
      ],
      [
        "å®",
        "ĺæĸ¹"
      ],
      [
        "åį",
        "ķ"
      ],
      [
        "åľ",
        "°ç"
      ],
      [
        "å¢ŀ",
        "éķ¿"
      ],
      [
        "å¢ŀ",
        "åĬł"
      ],
      [
        "æī",
        "©åĨĻ"
      ],
      [
        "æī",
        "¹å¤§"
      ],
      [
        "æį",
        "®åĬł"
      ],
      [
        "æł",
        "¹è¿"
      ],
      [
        "çº¯æ°´",
        "æĺ¯æĮ"
      ],
      [
        "è¦ģ",
        "çļĦçī"
      ],
      [
        "è¦ģ",
        "ä½¿çĶ¨æĿĥéĩį"
      ],
      [
        "éĶ",
        "®ä½įç½®"
      ],
      [
        "éĻ",
        "įä½İ"
      ],
      [
        "ĩæĸ¹",
        "æł¹è¿"
      ],
      [
        "ä¸ª",
        "è¯įå"
      ],
      [
        "ä¸ª",
        "å°ıç½"
      ],
      [
        "ä¸ŃçļĦ",
        "é¡º"
      ],
      [
        "åĪ¶",
        "å¤ĩæĸ¹"
      ],
      [
        "åĪĨ",
        "éħ"
      ],
      [
        "ä»İ",
        "èĢ"
      ],
      [
        "è¯įå",
        "ľ¨åı¥åŃĲ"
      ],
      [
        "åĨįåĨ",
        "³å®"
      ],
      [
        "åĨįåĨ",
        "Ļä¸Ģ"
      ],
      [
        "åĮºåĪ",
        "«"
      ],
      [
        "åĮºåĪ",
        "ĨåħĪ"
      ],
      [
        "åĲİ",
        "åħ³ç³»"
      ],
      [
        "æĿĥéĩį",
        "èĥ½"
      ],
      [
        "ç®Ģ",
        "åįķ"
      ],
      [
        "éĢļè¿ĩ",
        "åĪĨéħ"
      ],
      [
        "åºıåĪĹéķ¿åº¦",
        "è¿ĩå¤§ä¼ļ"
      ],
      [
        "åºıåĪĹéķ¿åº¦",
        "å¢ŀåĬł"
      ],
      [
        "èĴ¸é¦ıæ°´",
        "æĺ¯éĢļè¿ĩ"
      ],
      [
        "ä»Ģä¹Īæĺ¯",
        "RMSNorm"
      ],
      [
        "ä»Ģä¹Īæĺ¯",
        "æ³¨æĦıåĬĽæľºåĪ¶"
      ],
      [
        "ä¼ļ",
        "æĺİæĺ"
      ],
      [
        "å¹¶",
        "æİ"
      ],
      [
        "å¹¶",
        "ä¿ĿæĮ"
      ],
      [
        "åĩº",
        "å±Ĥ"
      ],
      [
        "è¡¨",
        "ä¸İçŁ"
      ],
      [
        "è§£",
        "éĩĬèĴ¸é¦ıæ°´"
      ],
      [
        "ä½¿çĶ¨",
        "èĩªæ³¨æĦıåĬĽ"
      ],
      [
        "ä½¿çĶ¨",
        "å°ıæ¨¡åŀĭ"
      ],
      [
        "ä¹łå",
        "īįåĲĳ"
      ],
      [
        "èĩªæ³¨æĦıåĬĽçļĦ",
        "è®¡ç®Ĺ"
      ],
      [
        "RMSNorm",
        "æĺ¯ä¸Ģç§"
      ],
      [
        "æĽ´",
        "éĢļä¿"
      ],
      [
        "åħ±äº«",
        "åµĮåħ"
      ],
      [
        "ç»ĵæŀĦ",
        "ç®Ģåįķ"
      ],
      [
        "è®¡ç®Ĺ",
        "å¼ĢéĶ"
      ],
      [
        "åĲĪéĢĤçļĦ",
        "åŃ¦ä¹łçİĩ"
      ],
      [
        "åĲĪéĢĤçļĦ",
        "æī¹å¤§"
      ],
      [
        "æ³¨æĦıåĬĽæľºåĪ¶",
        "éĢļè¿ĩåĪĨéħ"
      ],
      [
        "åħĪçľĭ",
        "æ¯ı"
      ],
      [
        "åħĪçľĭ",
        "å®ĺæĸ¹"
      ],
      [
        "ä½įç½®ç¼ĸçłģ",
        "åĳ"
      ],
      [
        "ä½įç½®ç¼ĸçłģ",
        "çļĦä½ľçĶ¨æ"
      ],
      [
        "CPUä¸Ĭ",
        "ä¼ļæĺİæĺ"
      ],
      [
        "Transformer",
        "çĶ¨ä¸Ģç§"
      ],
      [
        "Transformer",
        "ä½¿çĶ¨èĩªæ³¨æĦıåĬĽ"
      ],
      [
        "Tor",
        "ch"
      ],
      [
        "¢åı¥åŃĲ",
        "æī©åĨĻ"
      ],
      [
        "¤äº",
        "Ĩå¤§"
      ],
      [
        "¥ä¸İ",
        "è¾ĵ"
      ],
      [
        "¥æĺ¯",
        "èĴ¸é¦ı"
      ],
      [
        "¥éĹ",
        "¨Py"
      ],
      [
        "¥éĩį",
        "çĤ"
      ],
      [
        "¦éĢ",
        "Ģçģ"
      ],
      [
        "§åĪ¶",
        "è®Ńç»ĥæŃ"
      ],
      [
        "¨åĪĨ",
        "æĿĤè´¨"
      ],
      [
        "¨CPUä¸Ĭ",
        "è®Ńç»ĥ"
      ],
      [
        "«ç¼",
        "ĵæħ¢"
      ],
      [
        "«èĩªæ³¨æĦıåĬĽçļĦ",
        "æĸ¹æ³ķ"
      ],
      [
        "¯ä»",
        "¥æĺ¯èĴ¸é¦ı"
      ],
      [
        "¶ä»",
        "ĸè¯į"
      ],
      [
        "·å",
        "¾Ĺ"
      ],
      [
        "·æ¨¡åŀĭ",
        "å°±èĥ½"
      ],
      [
        "¹æ",
        "Ģ§"
      ],
      [
        "¹åı",
        "ĤèĢĥ"
      ],
      [
        "¹åĨĻ",
        "æĽ´éĢļä¿"
      ],
      [
        "»æķ°",
        "æį®åĬł"
      ],
      [
        "»éĻ",
        "¤äºĨå¤§"
      ],
      [
        "»ºè®",
        "®"
      ],
      [
        "½ç®Ģ",
        "åĮĸ"
      ],
      [
        "åİ",
        "»éĻ¤äºĨå¤§"
      ],
      [
        "åĿ",
        "ĩæĸ¹æł¹è¿"
      ],
      [
        "å¥½",
        "åľ°ç"
      ],
      [
        "å½ĵ",
        "åºıåĪĹéķ¿åº¦å¢ŀåĬł"
      ],
      [
        "æı",
        "Ĳåį"
      ],
      [
        "æĶ",
        "¹åĨĻæĽ´éĢļä¿"
      ],
      [
        "æĹ",
        "¶"
      ],
      [
        "çĥ",
        "Ńä»İ"
      ],
      [
        "ç´¯ç§",
        "¯"
      ],
      [
        "èĦ",
        "ļæľ"
      ],
      [
        "èĲ",
        "½ç®ĢåĮĸ"
      ],
      [
        "è·ĳ",
        "éĢļå¼łéĩı"
      ],
      [
        "è½½",
        "ä¸İè®Ńç»ĥ"
      ],
      [
        "éĥ",
        "¨åĪĨæĿĤè´¨"
      ],
      [
        "éĺ",
        "ħè¯"
      ],
      [
        "éªĮ",
        "è¯ģæį"
      ],
      [
        "ģè¡¨",
        "ç¤ºç©º"
      ],
      [
        "Ĥæķ°",
        "æķ°éĩı"
      ],
      [
        "ĩè®Ńç»ĥ",
        "æķĪçİĩ"
      ],
      [
        "ĩæĿĤè´¨",
        "åĲ«éĩı"
      ],
      [
        "īæ¨¡åŀĭ",
        "è¯įåľ¨åı¥åŃĲ"
      ],
      [
        "Ĭè¯",
        "īæ¨¡åŀĭè¯įåľ¨åı¥åŃĲ"
      ],
      [
        "Įç¼",
        "©æĶ¾"
      ],
      [
        "ĮæĽ´",
        "å¥½åľ°ç"
      ],
      [
        "įåı",
        "«èĩªæ³¨æĦıåĬĽçļĦæĸ¹æ³ķ"
      ],
      [
        "įæĿĥéĩį",
        "è®©æ¨¡åŀĭ"
      ],
      [
        "ıéķ¿åº¦",
        "å¹³æĸ¹"
      ],
      [
        "ĲĨè§£",
        "åºıåĪĹä¸ŃçļĦ"
      ],
      [
        "ĳåı",
        "Ĥæķ°æķ°éĩı"
      ],
      [
        "ĳç»",
        "ľç»ĥ"
      ],
      [
        "ĴĮåħ",
        "¶ä»ĸè¯į"
      ],
      [
        "ļè¯",
        "¥éĩįçĤ"
      ],
      [
        "Ľè¡",
        "Įç¼©æĶ¾"
      ],
      [
        "Łåħ",
        "¥éĹ¨Py"
      ],
      [
        "Łå¤",
        "±"
      ],
      [
        "Ńä¸",
        "įå¿ħ"
      ],
      [
        "ä¸ºä»Ģä¹Ī",
        "è¦ģä½¿çĶ¨æĿĥéĩį"
      ],
      [
        "ä½Ļå¼",
        "¦éĢĢçģ"
      ],
      [
        "åıįåĲĳ",
        "ä¸İä¼"
      ],
      [
        "åıįæ¸Ĺ",
        "éĢıçŃ"
      ],
      [
        "ç»Ļåĩº",
        "åŃ¦ä¹łå"
      ],
      [
        "įå½Ĵ",
        "ä¸ĢåĮĸ"
      ],
      [
        "ä¸İèĩª",
        "åĬ¨æ¢¯åº¦"
      ],
      [
        "ä¸İçº¯æ°´",
        "åĮºåĪ«"
      ],
      [
        "æķĻåŃ¦",
        "éĹ®çŃ"
      ],
      [
        "çĶ¨å¼łéĩı",
        "åĿĩæĸ¹æł¹è¿"
      ],
      [
        "åħ³éĹ",
        "Ńä¸įå¿ħ"
      ],
      [
        "åħ³æ³¨åħ³",
        "éĶ®ä½įç½®"
      ],
      [
        "å°ıè¯į",
        "è¡¨ä¸İçŁ"
      ],
      [
        "å°ıä¸İæ¢¯åº¦",
        "ç´¯ç§¯"
      ],
      [
        "å¼ıåı",
        "¯ä»¥æĺ¯èĴ¸é¦ı"
      ],
      [
        "åĨįçĶ¨",
        "ä½Ļå¼¦éĢĢçģ"
      ],
      [
        "è¿Ļæł",
        "·æ¨¡åŀĭå°±èĥ½"
      ],
      [
        "éĩıéļ",
        "ıéķ¿åº¦å¹³æĸ¹"
      ],
      [
        "æľĢåĲİ",
        "éĺħè¯"
      ],
      [
        "éĹ´ä¸Ģ",
        "èĩ´"
      ],
      [
        "åħĪçĶ¨é¢Ħ",
        "çĥŃä»İ"
      ],
      [
        "èĴ¸é¦ıèİ",
        "·å¾Ĺ"
      ],
      [
        "åĩıå°",
        "ĳåıĤæķ°æķ°éĩı"
      ],
      [
        "æŀģä½İ",
        "çļĦæ°´"
      ],
      [
        "è§Ĥå¯Ł",
        "éªĮè¯ģæį"
      ],
      [
        "å¦Ĥä½ķåľ",
        "¨CPUä¸Ĭè®Ńç»ĥ"
      ],
      [
        "å¦Ĥä½ķå¿«éĢ",
        "Łåħ¥éĹ¨Py"
      ],
      [
        "å¦Ĥä½ķè®¾ç½®",
        "åĲĪéĢĤçļĦåŃ¦ä¹łçİĩ"
      ],
      [
        "æĬĬåı¥åŃĲ",
        "æĶ¹åĨĻæĽ´éĢļä¿"
      ],
      [
        "æĬĬæ®µ",
        "èĲ½ç®ĢåĮĸ"
      ],
      [
        "æĬĬä¸ĭéĿ",
        "¢åı¥åŃĲæī©åĨĻ"
      ],
      [
        "çº¯æ°´æĺ¯æĮ",
        "ĩæĿĤè´¨åĲ«éĩı"
      ],
      [
        "è¦ģçļĦçī",
        "¹æĢ§"
      ],
      [
        "ä¸ªè¯įå",
        "ĴĮåħ¶ä»ĸè¯į"
      ],
      [
        "ä¸ªå°ıç½",
        "ĳç»ľç»ĥ"
      ],
      [
        "ä¸ŃçļĦé¡º",
        "åºı"
      ],
      [
        "åĪ¶å¤ĩæĸ¹",
        "å¼ıåı¯ä»¥æĺ¯èĴ¸é¦ı"
      ],
      [
        "ä»İèĢ",
        "ĮæĽ´å¥½åľ°ç"
      ],
      [
        "åĨįåĨ³å®",
        "ļè¯¥éĩįçĤ"
      ],
      [
        "åĨįåĨĻä¸Ģ",
        "ä¸ªå°ıç½ĳç»ľç»ĥ"
      ],
      [
        "åĮºåĪĨåħĪ",
        "åĲİåħ³ç³»"
      ],
      [
        "æĿĥéĩįèĥ½",
        "åĩıå°ĳåıĤæķ°æķ°éĩı"
      ],
      [
        "åºıåĪĹéķ¿åº¦è¿ĩå¤§ä¼ļ",
        "åıĺæħ¢"
      ],
      [
        "èĴ¸é¦ıæ°´æĺ¯éĢļè¿ĩ",
        "èĴ¸é¦ıèİ·å¾Ĺ"
      ],
      [
        "å¹¶æİ",
        "§åĪ¶è®Ńç»ĥæŃ"
      ],
      [
        "å¹¶ä¿ĿæĮ",
        "ģè¡¨ç¤ºç©º"
      ],
      [
        "åĩºå±Ĥ",
        "æĿĥéĩįèĥ½åĩıå°ĳåıĤæķ°æķ°éĩı"
      ],
      [
        "è§£éĩĬèĴ¸é¦ıæ°´",
        "ä¸İçº¯æ°´åĮºåĪ«"
      ],
      [
        "èĩªæ³¨æĦıåĬĽçļĦè®¡ç®Ĺ",
        "éĩıéļıéķ¿åº¦å¹³æĸ¹"
      ],
      [
        "RMSNormæĺ¯ä¸Ģç§",
        "įå½Ĵä¸ĢåĮĸ"
      ],
      [
        "åħ±äº«åµĮåħ",
        "¥ä¸İè¾ĵ"
      ],
      [
        "è®¡ç®Ĺå¼ĢéĶ",
        "Ģå°ı"
      ],
      [
        "åĲĪéĢĤçļĦæī¹å¤§",
        "å°ıä¸İæ¢¯åº¦ç´¯ç§¯"
      ],
      [
        "æ³¨æĦıåĬĽæľºåĪ¶éĢļè¿ĩåĪĨéħ",
        "įæĿĥéĩįè®©æ¨¡åŀĭ"
      ],
      [
        "åħĪçľĭæ¯ı",
        "ä¸ªè¯įåĴĮåħ¶ä»ĸè¯į"
      ],
      [
        "åħĪçľĭå®ĺæĸ¹",
        "ç¤ºä¾ĭ"
      ],
      [
        "ä½įç½®ç¼ĸçłģåĳ",
        "Ĭè¯īæ¨¡åŀĭè¯įåľ¨åı¥åŃĲ"
      ],
      [
        "ä½įç½®ç¼ĸçłģçļĦä½ľçĶ¨æ",
        "ĺ¯ä»Ģä¹Ī"
      ],
      [
        "CPUä¸Ĭä¼ļæĺİæĺ",
        "¾åıĺæħ¢"
      ],
      [
        "TransformerçĶ¨ä¸Ģç§",
        "įåı«èĩªæ³¨æĦıåĬĽçļĦæĸ¹æ³ķ"
      ],
      [
        "«ç¼ĵæħ¢",
        "éĻįä½İ"
      ],
      [
        "¹åıĤèĢĥ",
        "è°ģ"
      ],
      [
        "»æķ°æį®åĬł",
        "è½½ä¸İè®Ńç»ĥ"
      ],
      [
        "åİ»éĻ¤äºĨå¤§",
        "éĥ¨åĪĨæĿĤè´¨"
      ],
      [
        "å½ĵåºıåĪĹéķ¿åº¦å¢ŀåĬł",
        "æĹ¶"
      ],
      [
        "æıĲåį",
        "ĩè®Ńç»ĥæķĪçİĩ"
      ],
      [
        "èĦļæľ",
        "¬ç»ĵæŀĦ"
      ],
      [
        "è·ĳéĢļå¼łéĩı",
        "ä¸İèĩªåĬ¨æ¢¯åº¦"
      ],
      [
        "ĲĨè§£åºıåĪĹä¸ŃçļĦ",
        "åħ³ç³»"
      ],
      [
        "ä¸ºä»Ģä¹Īè¦ģä½¿çĶ¨æĿĥéĩį",
        "åħ±äº«"
      ],
      [
        "åıįåĲĳä¸İä¼",
        "ĺåĮĸ"
      ],
      [
        "åıįæ¸ĹéĢıçŃ",
        "ī"
      ],
      [
        "ç»ĻåĩºåŃ¦ä¹łå",
        "»ºè®®"
      ],
      [
        "æķĻåŃ¦éĹ®çŃ",
        "Ķ"
      ],
      [
        "çĶ¨å¼łéĩıåĿĩæĸ¹æł¹è¿",
        "Ľè¡Įç¼©æĶ¾"
      ],
      [
        "åħ³éĹŃä¸įå¿ħ",
        "è¦ģçļĦçī¹æĢ§"
      ],
      [
        "å°ıè¯įè¡¨ä¸İçŁ",
        "ŃåºıåĪĹ"
      ],
      [
        "åĨįçĶ¨ä½Ļå¼¦éĢĢçģ",
        "«ç¼ĵæħ¢éĻįä½İ"
      ],
      [
        "è¿Ļæł·æ¨¡åŀĭå°±èĥ½",
        "åĮºåĪĨåħĪåĲİåħ³ç³»"
      ],
      [
        "æľĢåĲİéĺħè¯",
        "»æķ°æį®åĬłè½½ä¸İè®Ńç»ĥ"
      ],
      [
        "åħĪçĶ¨é¢ĦçĥŃä»İ",
        "å°ıåĪ°å¤§"
      ],
      [
        "è§Ĥå¯ŁéªĮè¯ģæį",
        "Łå¤±"
      ],
      [
        "å¦Ĥä½ķå¿«éĢŁåħ¥éĹ¨Py",
        "Torch"
      ],
      [
        "æĬĬåı¥åŃĲæĶ¹åĨĻæĽ´éĢļä¿",
        "Ĺ"
      ],
      [
        "çº¯æ°´æĺ¯æĮĩæĿĤè´¨åĲ«éĩı",
        "æŀģä½İçļĦæ°´"
      ],
      [
        "ä»İèĢĮæĽ´å¥½åľ°ç",
        "ĲĨè§£åºıåĪĹä¸ŃçļĦåħ³ç³»"
      ],
      [
        "åĨįåĨ³å®ļè¯¥éĩįçĤ",
        "¹åıĤèĢĥè°ģ"
      ],
      [
        "åĨįåĨĻä¸Ģä¸ªå°ıç½ĳç»ľç»ĥ",
        "ä¹łåīįåĲĳ"
      ],
      [
        "èĴ¸é¦ıæ°´æĺ¯éĢļè¿ĩèĴ¸é¦ıèİ·å¾Ĺ",
        "çļĦæ°´"
      ],
      [
        "å¹¶æİ§åĪ¶è®Ńç»ĥæŃ",
        "¥æķ°"
      ],
      [
        "å¹¶ä¿ĿæĮģè¡¨ç¤ºç©º",
        "éĹ´ä¸Ģèĩ´"
      ],
      [
        "èĩªæ³¨æĦıåĬĽçļĦè®¡ç®Ĺéĩıéļıéķ¿åº¦å¹³æĸ¹",
        "å¢ŀéķ¿"
      ],
      [
        "RMSNormæĺ¯ä¸Ģç§įå½Ĵä¸ĢåĮĸ",
        "æĸ¹æ³ķ"
      ],
      [
        "åħ±äº«åµĮåħ¥ä¸İè¾ĵ",
        "åĩºå±ĤæĿĥéĩįèĥ½åĩıå°ĳåıĤæķ°æķ°éĩı"
      ],
      [
        "æ³¨æĦıåĬĽæľºåĪ¶éĢļè¿ĩåĪĨéħįæĿĥéĩįè®©æ¨¡åŀĭ",
        "åħ³æ³¨åħ³éĶ®ä½įç½®"
      ],
      [
        "åħĪçľĭæ¯ıä¸ªè¯įåĴĮåħ¶ä»ĸè¯į",
        "çļĦåħ³ç³»"
      ],
      [
        "ä½įç½®ç¼ĸçłģåĳĬè¯īæ¨¡åŀĭè¯įåľ¨åı¥åŃĲ",
        "ä¸ŃçļĦé¡ºåºı"
      ],
      [
        "æľĢåĲİéĺħè¯»æķ°æį®åĬłè½½ä¸İè®Ńç»ĥ",
        "èĦļæľ¬ç»ĵæŀĦ"
      ]
    ]
  }
}